0064
007C
000B
0000
0001
0000
0001
0005
0000
0000
0006
0002
0004
0000
0000
0001
0064
007C
000B
0000
0001
0000
0001
0005
0000
0000
0006
0002
0004
0000
0000
0001
0064
007C
000B
0000
0001
0000
0001
0005
0000
0000
0006
0002
0004
0000
0000
0001
0064
007C
000B
0000
0001
0000
0001
0005
0000
0000
0006
0002
0004
0000
0000
0001
0064
007C
000B
0000
0001
0000
0001
0005
0000
0000
0006
0002
0004
0000
0000
0001
0064
007C
000B
0000
0001
0000
0001
0005
0000
0000
0006
0002
0004
0000
0000
0001
0064
007C
000B
0000
0001
0000
0001
0005
0000
0000
0006
0002
0004
0000
0000
0001
0064
007C
000B
0000
0001
0000
0001
0005
0000
0000
0006
0002
0004
0000
0000
0001
0064
007C
000B
0000
0001
0000
0001
0005
0000
0000
0006
0002
0004
0000
0000
0001
0064
007C
000B
0000
0001
0000
0001
0005
0000
0000
0006
0002
0004
0000
0000
0001
0064
007C
000B
0000
0001
0000
0001
0005
0000
0000
0006
0002
0004
0000
0000
0001
0064
007C
000B
0000
0001
0000
0001
0005
0000
0000
0006
0002
0004
0000
0000
0001
0064
007C
000B
0000
0001
0000
0001
0005
0000
0000
0006
0002
0004
0000
0000
0001
0064
007C
000B
0000
0001
0000
0001
0005
0000
0000
0006
0002
0004
0000
0000
0001
0064
007C
000B
0000
0001
0000
0001
0005
0000
0000
0006
0002
0004
0000
0000
0001
0064
007C
000B
0000
0001
0000
0001
0005
0000
0000
0006
0002
0004
0000
0000
0001
